#ifndef MY_STRESS_MODEL_H
#define MY_STRESS_MODEL_H


unsigned int my_stress_model_len = 2884;
unsigned char my_stress_model[] = {
 0x1c, 0x00, 0x00, 0x00, 0x54, 0x46, 0x4c, 0x33, 0x14, 0x00, 0x20, 0x00,
  0x1c, 0x00, 0x18, 0x00, 0x14, 0x00, 0x10, 0x00, 0x0c, 0x00, 0x00, 0x00,
  0x08, 0x00, 0x04, 0x00, 0x14, 0x00, 0x00, 0x00, 0x1c, 0x00, 0x00, 0x00,
  0x98, 0x00, 0x00, 0x00, 0xf0, 0x00, 0x00, 0x00, 0x7c, 0x06, 0x00, 0x00,
  0x8c, 0x06, 0x00, 0x00, 0xe0, 0x0a, 0x00, 0x00, 0x03, 0x00, 0x00, 0x00,
  0x01, 0x00, 0x00, 0x00, 0x10, 0x00, 0x00, 0x00, 0x00, 0x00, 0x0a, 0x00,
  0x10, 0x00, 0x0c, 0x00, 0x08, 0x00, 0x04, 0x00, 0x0a, 0x00, 0x00, 0x00,
  0x0c, 0x00, 0x00, 0x00, 0x1c, 0x00, 0x00, 0x00, 0x3c, 0x00, 0x00, 0x00,
  0x0f, 0x00, 0x00, 0x00, 0x73, 0x65, 0x72, 0x76, 0x69, 0x6e, 0x67, 0x5f,
  0x64, 0x65, 0x66, 0x61, 0x75, 0x6c, 0x74, 0x00, 0x01, 0x00, 0x00, 0x00,
  0x04, 0x00, 0x00, 0x00, 0x90, 0xff, 0xff, 0xff, 0x07, 0x00, 0x00, 0x00,
  0x04, 0x00, 0x00, 0x00, 0x08, 0x00, 0x00, 0x00, 0x6f, 0x75, 0x74, 0x70,
  0x75, 0x74, 0x5f, 0x30, 0x00, 0x00, 0x00, 0x00, 0x01, 0x00, 0x00, 0x00,
  0x04, 0x00, 0x00, 0x00, 0x6e, 0xf9, 0xff, 0xff, 0x04, 0x00, 0x00, 0x00,
  0x0e, 0x00, 0x00, 0x00, 0x6b, 0x65, 0x72, 0x61, 0x73, 0x5f, 0x74, 0x65,
  0x6e, 0x73, 0x6f, 0x72, 0x5f, 0x34, 0x00, 0x00, 0x02, 0x00, 0x00, 0x00,
  0x34, 0x00, 0x00, 0x00, 0x04, 0x00, 0x00, 0x00, 0xdc, 0xff, 0xff, 0xff,
  0x0a, 0x00, 0x00, 0x00, 0x04, 0x00, 0x00, 0x00, 0x13, 0x00, 0x00, 0x00,
  0x43, 0x4f, 0x4e, 0x56, 0x45, 0x52, 0x53, 0x49, 0x4f, 0x4e, 0x5f, 0x4d,
  0x45, 0x54, 0x41, 0x44, 0x41, 0x54, 0x41, 0x00, 0x08, 0x00, 0x0c, 0x00,
  0x08, 0x00, 0x04, 0x00, 0x08, 0x00, 0x00, 0x00, 0x09, 0x00, 0x00, 0x00,
  0x04, 0x00, 0x00, 0x00, 0x13, 0x00, 0x00, 0x00, 0x6d, 0x69, 0x6e, 0x5f,
  0x72, 0x75, 0x6e, 0x74, 0x69, 0x6d, 0x65, 0x5f, 0x76, 0x65, 0x72, 0x73,
  0x69, 0x6f, 0x6e, 0x00, 0x0b, 0x00, 0x00, 0x00, 0x88, 0x05, 0x00, 0x00,
  0x80, 0x05, 0x00, 0x00, 0xf0, 0x02, 0x00, 0x00, 0xcc, 0x02, 0x00, 0x00,
  0x3c, 0x02, 0x00, 0x00, 0xac, 0x00, 0x00, 0x00, 0xa4, 0x00, 0x00, 0x00,
  0x9c, 0x00, 0x00, 0x00, 0x94, 0x00, 0x00, 0x00, 0x74, 0x00, 0x00, 0x00,
  0x04, 0x00, 0x00, 0x00, 0x16, 0xfa, 0xff, 0xff, 0x04, 0x00, 0x00, 0x00,
  0x60, 0x00, 0x00, 0x00, 0x10, 0x00, 0x00, 0x00, 0x00, 0x00, 0x00, 0x00,
  0x08, 0x00, 0x0e, 0x00, 0x08, 0x00, 0x04, 0x00, 0x08, 0x00, 0x00, 0x00,
  0x10, 0x00, 0x00, 0x00, 0x24, 0x00, 0x00, 0x00, 0x00, 0x00, 0x06, 0x00,
  0x08, 0x00, 0x04, 0x00, 0x06, 0x00, 0x00, 0x00, 0x04, 0x00, 0x00, 0x00,
  0x00, 0x00, 0x00, 0x00, 0x0c, 0x00, 0x18, 0x00, 0x14, 0x00, 0x10, 0x00,
  0x0c, 0x00, 0x04, 0x00, 0x0c, 0x00, 0x00, 0x00, 0x81, 0xdb, 0xf0, 0x11,
  0x88, 0x11, 0xbd, 0x37, 0x02, 0x00, 0x00, 0x00, 0x02, 0x00, 0x00, 0x00,
  0x04, 0x00, 0x00, 0x00, 0x06, 0x00, 0x00, 0x00, 0x32, 0x2e, 0x31, 0x37,
  0x2e, 0x30, 0x00, 0x00, 0x82, 0xfa, 0xff, 0xff, 0x04, 0x00, 0x00, 0x00,
  0x10, 0x00, 0x00, 0x00, 0x31, 0x2e, 0x35, 0x2e, 0x30, 0x00, 0x00, 0x00,
  0x00, 0x00, 0x00, 0x00, 0x00, 0x00, 0x00, 0x00, 0xf8, 0xf6, 0xff, 0xff,
  0xfc, 0xf6, 0xff, 0xff, 0x00, 0xf7, 0xff, 0xff, 0xaa, 0xfa, 0xff, 0xff,
  0x04, 0x00, 0x00, 0x00, 0x80, 0x01, 0x00, 0x00, 0x1a, 0xdd, 0xc2, 0x3e,
  0x42, 0x45, 0xd1, 0x3e, 0xe9, 0xf4, 0xed, 0x3d, 0xba, 0x63, 0xa0, 0x3e,
  0x38, 0xcc, 0xc0, 0x3d, 0xbf, 0x05, 0xa1, 0xbe, 0xdb, 0x84, 0xe1, 0xbe,
  0x41, 0xc8, 0x86, 0x3e, 0x47, 0xf7, 0xf7, 0x3d, 0x69, 0xe3, 0x11, 0x3e,
  0xc2, 0x48, 0x97, 0x3e, 0x41, 0x14, 0xcc, 0xbe, 0xb6, 0xfa, 0xca, 0x3d,
  0x72, 0x71, 0x17, 0xbe, 0xbf, 0x82, 0x03, 0x3f, 0x84, 0xf1, 0x15, 0x3f,
  0xdb, 0xaa, 0x34, 0xbe, 0xff, 0x18, 0xc8, 0xbe, 0xa0, 0x77, 0x8f, 0xbe,
  0x9f, 0xac, 0xbf, 0x3e, 0x93, 0xea, 0x9b, 0xbb, 0x49, 0x71, 0x91, 0xbc,
  0xc0, 0xd2, 0x0e, 0x3e, 0x09, 0xe9, 0x94, 0x3d, 0xc2, 0xbc, 0x78, 0x3c,
  0xd9, 0x12, 0xa0, 0x3e, 0x35, 0xe7, 0x9c, 0xbe, 0x29, 0x26, 0xaa, 0xbe,
  0x17, 0x9a, 0x88, 0x3d, 0x7e, 0xef, 0x97, 0x3e, 0xe3, 0x84, 0x3b, 0x3e,
  0x99, 0x4c, 0x05, 0xbf, 0x39, 0xfb, 0x23, 0xbe, 0xa8, 0x8c, 0x0a, 0xbf,
  0x4b, 0x4f, 0x00, 0xbf, 0xea, 0xc0, 0xf0, 0x3e, 0xaa, 0x5c, 0x80, 0x3d,
  0x09, 0xc6, 0x97, 0x3e, 0x97, 0xbb, 0x0a, 0x3f, 0xf6, 0xc0, 0x02, 0x3e,
  0x10, 0x9b, 0x1a, 0xbf, 0xa8, 0xd0, 0x9b, 0x3e, 0x8f, 0x17, 0x67, 0xbd,
  0x3b, 0x77, 0x7c, 0xbd, 0x39, 0x51, 0x60, 0xbe, 0xa7, 0xe4, 0xe6, 0x3e,
  0x15, 0x06, 0x24, 0xbe, 0xa5, 0x04, 0x0e, 0xbe, 0xd8, 0xac, 0x9e, 0xbe,
  0x4c, 0x81, 0x0e, 0x3f, 0x56, 0xa2, 0x76, 0x3e, 0xaa, 0x82, 0xed, 0xbd,
  0xf4, 0x0b, 0xfe, 0xbe, 0xc0, 0x97, 0x14, 0xbf, 0xdb, 0xfe, 0x04, 0xbe,
  0x71, 0xbb, 0xb7, 0x3e, 0x82, 0x53, 0x86, 0x3e, 0xe4, 0x66, 0x07, 0x3f,
  0x7f, 0xad, 0x51, 0xbd, 0x49, 0xc8, 0xc0, 0xbe, 0x88, 0x9c, 0x89, 0x3d,
  0xe2, 0xb5, 0x25, 0x3f, 0xdc, 0xc9, 0x7c, 0xbe, 0xb0, 0x85, 0x15, 0xbe,
  0x52, 0x3b, 0x8e, 0xbd, 0x2a, 0x6a, 0x97, 0x3e, 0x13, 0x8d, 0x00, 0xbe,
  0x8a, 0xcb, 0x15, 0x3e, 0xe7, 0xe0, 0xc7, 0x3e, 0xd5, 0xcc, 0xc1, 0x3e,
  0x7f, 0x88, 0x93, 0xbe, 0xe2, 0x4a, 0xa1, 0xbe, 0x8c, 0xdc, 0x40, 0x3e,
  0xbb, 0x36, 0x9a, 0xbe, 0xa2, 0x30, 0x04, 0xbf, 0x5c, 0x23, 0xe1, 0xbd,
  0xbd, 0x99, 0x87, 0x3e, 0x70, 0x4b, 0x15, 0x3f, 0x50, 0x84, 0x8b, 0xbd,
  0x6a, 0xf9, 0xa3, 0xbe, 0xc7, 0x98, 0x7c, 0xbe, 0x07, 0x65, 0xa5, 0x3e,
  0xac, 0xa7, 0x13, 0xbf, 0x34, 0x96, 0xfe, 0xbe, 0xaa, 0xd0, 0xbb, 0xbe,
  0xfc, 0xb8, 0x48, 0xbe, 0x69, 0xc2, 0x8b, 0xbe, 0xe9, 0x7c, 0x0f, 0x3e,
  0x8c, 0x0f, 0xfe, 0x3e, 0xc6, 0xca, 0x53, 0xbd, 0x8c, 0xbb, 0xff, 0x3e,
  0xc6, 0x09, 0xd2, 0xbe, 0x0f, 0x31, 0xa8, 0x3d, 0x4a, 0x83, 0x06, 0xbf,
  0xde, 0x47, 0x8b, 0x3e, 0x40, 0x18, 0x62, 0xbd, 0x36, 0xfc, 0xff, 0xff,
  0x04, 0x00, 0x00, 0x00, 0x80, 0x00, 0x00, 0x00, 0xe1, 0x82, 0x92, 0x3e,
  0x69, 0x37, 0x74, 0x3e, 0x07, 0xf0, 0x72, 0xbc, 0x08, 0x81, 0x50, 0xbd,
  0x00, 0x10, 0x57, 0xbd, 0x93, 0x42, 0x5f, 0xbd, 0x1c, 0x05, 0xad, 0x3e,
  0x0c, 0xc3, 0xab, 0x3e, 0x96, 0x7e, 0x83, 0x3e, 0xbb, 0x11, 0x3e, 0x3d,
  0x0d, 0xab, 0xb6, 0xbd, 0xfb, 0xb1, 0x15, 0xbe, 0x26, 0x87, 0x4c, 0x3d,
  0x92, 0xd3, 0x27, 0xbe, 0xf2, 0x60, 0x0a, 0xbe, 0x3f, 0x14, 0x86, 0x3e,
  0xd8, 0xa7, 0x04, 0x3e, 0xb8, 0xff, 0x86, 0x3e, 0xef, 0xaa, 0x4d, 0xbe,
  0x0e, 0x35, 0x34, 0x3e, 0xd7, 0xb6, 0xc9, 0x3e, 0x3f, 0xce, 0xcf, 0xbd,
  0x5e, 0x03, 0xd7, 0x3d, 0x05, 0xa0, 0x70, 0xbd, 0x72, 0xca, 0xcc, 0x3c,
  0x53, 0x34, 0x86, 0xbd, 0x9b, 0x1f, 0x24, 0xbe, 0xc8, 0x3c, 0x8a, 0xbd,
  0x54, 0xcc, 0xe6, 0x3d, 0x73, 0xf3, 0xa5, 0x3e, 0xdc, 0xf3, 0xef, 0x3d,
  0x6f, 0x36, 0xc0, 0xbd, 0xc2, 0xfc, 0xff, 0xff, 0x04, 0x00, 0x00, 0x00,
  0x14, 0x00, 0x00, 0x00, 0xf4, 0x29, 0x2e, 0xbe, 0x9c, 0x0e, 0x90, 0x3d,
  0x92, 0xe8, 0x71, 0x3e, 0xdd, 0x01, 0x99, 0x3c, 0x58, 0x2e, 0x5d, 0xbe,
  0xe2, 0xfc, 0xff, 0xff, 0x04, 0x00, 0x00, 0x00, 0x80, 0x02, 0x00, 0x00,
  0x98, 0xfc, 0x0c, 0xbf, 0x7d, 0xa3, 0xb1, 0x3e, 0xd5, 0x4d, 0x22, 0x3d,
  0xe2, 0xa4, 0xc4, 0xbe, 0xdf, 0x63, 0xa1, 0xbe, 0x9e, 0x89, 0xf7, 0x3d,
  0x03, 0x88, 0x0e, 0xbf, 0x12, 0xbc, 0x0f, 0xbf, 0x0b, 0x44, 0x5e, 0xbe,
  0xd3, 0x35, 0x10, 0xbf, 0xb3, 0xaf, 0xad, 0x3d, 0x13, 0x89, 0x34, 0x3e,
  0x81, 0x03, 0xa6, 0xbe, 0xfc, 0x05, 0x46, 0x3e, 0x2a, 0x13, 0x3d, 0xbe,
  0x37, 0xe7, 0xc2, 0x3e, 0x0c, 0xb3, 0x7d, 0xbe, 0x7b, 0x56, 0x8f, 0x3e,
  0xc8, 0x12, 0xd8, 0xbe, 0xe6, 0xf6, 0xd0, 0x3e, 0x31, 0x1a, 0x3c, 0xbe,
  0x05, 0xad, 0x53, 0x3e, 0x6d, 0xe6, 0xb2, 0xbb, 0x5e, 0x2f, 0xfe, 0xbd,
  0xf8, 0xb5, 0xcc, 0x3e, 0xd0, 0xbb, 0x01, 0xbf, 0xe3, 0x37, 0x4b, 0xbd,
  0x53, 0xff, 0xc7, 0x3e, 0x53, 0xa1, 0x61, 0xbd, 0x4b, 0x9e, 0x0e, 0xbf,
  0x87, 0xcf, 0xee, 0x3e, 0xb0, 0x9f, 0x77, 0xbd, 0x2e, 0x22, 0xad, 0x3e,
  0xb8, 0x0d, 0x60, 0x3e, 0xa2, 0xce, 0x23, 0xbd, 0x68, 0xfa, 0x12, 0x3f,
  0x1c, 0x76, 0xd6, 0xbe, 0x1b, 0x1f, 0x8e, 0x3e, 0xbe, 0xc6, 0x01, 0xbf,
  0x68, 0x78, 0x11, 0x3e, 0xd1, 0x1c, 0x05, 0x3d, 0x57, 0x8a, 0x66, 0xbd,
  0xeb, 0x8a, 0xf8, 0xbd, 0x2e, 0xe5, 0x00, 0xbe, 0xe2, 0x93, 0x05, 0xbf,
  0x3d, 0xd0, 0x31, 0xbf, 0xc9, 0x10, 0xcb, 0xbe, 0x04, 0x5f, 0xf1, 0x3e,
  0xb4, 0x2b, 0xf4, 0xbe, 0xb1, 0x88, 0x94, 0x3e, 0xf0, 0x75, 0x5e, 0x3d,
  0x4d, 0x77, 0x5f, 0xbe, 0x66, 0x37, 0x1f, 0x3e, 0x50, 0x28, 0x52, 0x3e,
  0xcf, 0xa2, 0xff, 0xbe, 0xaf, 0x9a, 0x92, 0xbd, 0x04, 0x8e, 0x0f, 0x3e,
  0xe6, 0x3d, 0xd4, 0x3c, 0x45, 0x8f, 0x8b, 0xbe, 0xc6, 0xf8, 0x96, 0x3e,
  0x70, 0xc1, 0x9d, 0x3e, 0x08, 0x22, 0x8e, 0xbd, 0x57, 0x91, 0xf7, 0x3e,
  0x86, 0x46, 0xbf, 0x3d, 0x28, 0xe0, 0x82, 0x3e, 0x16, 0x5e, 0xf9, 0x3e,
  0xb7, 0x85, 0x90, 0xbe, 0xd5, 0x83, 0x81, 0xbe, 0xae, 0x79, 0xe8, 0xbd,
  0xf1, 0x0d, 0xea, 0xbe, 0x6e, 0x76, 0x90, 0x3d, 0xaa, 0x04, 0x89, 0x3e,
  0x8a, 0x19, 0x0a, 0x3f, 0xa9, 0x4c, 0x2b, 0xbf, 0xaf, 0x42, 0x17, 0xbf,
  0xf4, 0xf9, 0xf6, 0x3c, 0xbc, 0x84, 0x4d, 0xbe, 0x12, 0x23, 0xc7, 0x3c,
  0x24, 0x80, 0xb5, 0xbd, 0xf6, 0x05, 0xa1, 0x3e, 0x95, 0x71, 0xa6, 0xbe,
  0x5b, 0xdd, 0x8b, 0x3e, 0x9c, 0xe7, 0xec, 0xbe, 0xd6, 0x55, 0x61, 0x3e,
  0x97, 0x8f, 0x29, 0x3f, 0xef, 0x61, 0x2b, 0x3d, 0x86, 0x27, 0xe9, 0xbc,
  0x24, 0x74, 0x18, 0xbf, 0x26, 0xef, 0x64, 0xbe, 0x46, 0xf5, 0xd4, 0xbe,
  0x44, 0x60, 0x86, 0xbe, 0x15, 0xbb, 0xf6, 0xbe, 0xb7, 0xe3, 0xe1, 0x3e,
  0x9b, 0x2d, 0x01, 0x3f, 0x29, 0x52, 0x4a, 0xbe, 0xe2, 0x44, 0x2e, 0xbf,
  0xfd, 0x41, 0xe3, 0x3e, 0xae, 0x0f, 0xbb, 0xbe, 0x9b, 0x08, 0x30, 0x3e,
  0x06, 0x89, 0x8e, 0x3d, 0xd9, 0x98, 0xa6, 0xbe, 0xeb, 0x21, 0x9e, 0xbe,
  0xf7, 0xd0, 0x3b, 0x3e, 0x2e, 0x57, 0xcf, 0x3e, 0x86, 0xad, 0xb5, 0x3e,
  0x2d, 0x46, 0x9f, 0x3e, 0xd9, 0x02, 0x5a, 0x3e, 0x3c, 0xec, 0x00, 0xbf,
  0x7a, 0x9e, 0x19, 0xbe, 0x1d, 0x07, 0xaa, 0xba, 0x61, 0x80, 0x10, 0xbe,
  0x7d, 0x29, 0x1a, 0xbf, 0xb3, 0xd4, 0xd0, 0x3e, 0xc9, 0x19, 0x14, 0xbf,
  0xcd, 0xbe, 0xa5, 0xbe, 0xde, 0x48, 0xc9, 0xbe, 0xaa, 0x7f, 0x17, 0x3f,
  0x6d, 0xca, 0xb5, 0x3c, 0x23, 0x7b, 0xcd, 0xbd, 0x06, 0x53, 0x30, 0x3e,
  0xd3, 0x87, 0xaa, 0xbe, 0x48, 0x25, 0xd4, 0xba, 0x93, 0xe1, 0x3f, 0xbe,
  0x03, 0x78, 0x49, 0x3e, 0x2a, 0x53, 0x75, 0x3e, 0xe0, 0x2e, 0x14, 0x3f,
  0xc3, 0xae, 0xdb, 0xbe, 0x0f, 0x15, 0x75, 0xbc, 0xfe, 0x7c, 0xef, 0xbd,
  0x82, 0x4b, 0x7e, 0x3d, 0xed, 0x62, 0x42, 0x3d, 0x2f, 0x64, 0x98, 0x3d,
  0x24, 0x43, 0x60, 0x3e, 0xa7, 0xca, 0x3d, 0x3d, 0x95, 0x63, 0x12, 0x3d,
  0x74, 0xdb, 0x19, 0x3e, 0x98, 0x5d, 0xea, 0xbe, 0x02, 0x52, 0xac, 0x3e,
  0xbd, 0x9a, 0xa6, 0xbe, 0x95, 0xcc, 0xda, 0x3e, 0xf4, 0xf1, 0xd2, 0x3e,
  0xa1, 0x2c, 0xb4, 0xbe, 0xfd, 0x89, 0x30, 0x3e, 0x33, 0x90, 0xf4, 0xbe,
  0x16, 0x10, 0x5a, 0x3c, 0x55, 0xdd, 0xef, 0xbd, 0x7a, 0x28, 0x6e, 0x3e,
  0x27, 0x7c, 0x07, 0xbf, 0x13, 0xe3, 0x16, 0x3e, 0x08, 0x6b, 0x13, 0x3f,
  0x87, 0x17, 0xbc, 0x3e, 0x1b, 0xa7, 0xff, 0xbe, 0xf1, 0x31, 0x39, 0xbe,
  0x70, 0xb3, 0x04, 0x3f, 0x64, 0xe4, 0x54, 0x3e, 0xca, 0x84, 0x45, 0xbe,
  0xab, 0xc1, 0xe2, 0xbb, 0xe2, 0xb2, 0x69, 0xbd, 0xc1, 0xfb, 0x0f, 0x3e,
  0xb7, 0xea, 0x22, 0x3f, 0xc8, 0xfb, 0xff, 0xff, 0xcc, 0xfb, 0xff, 0xff,
  0x0f, 0x00, 0x00, 0x00, 0x4d, 0x4c, 0x49, 0x52, 0x20, 0x43, 0x6f, 0x6e,
  0x76, 0x65, 0x72, 0x74, 0x65, 0x64, 0x2e, 0x00, 0x01, 0x00, 0x00, 0x00,
  0x14, 0x00, 0x00, 0x00, 0x00, 0x00, 0x0e, 0x00, 0x18, 0x00, 0x14, 0x00,
  0x10, 0x00, 0x0c, 0x00, 0x08, 0x00, 0x04, 0x00, 0x0e, 0x00, 0x00, 0x00,
  0x14, 0x00, 0x00, 0x00, 0x1c, 0x00, 0x00, 0x00, 0xec, 0x00, 0x00, 0x00,
  0xf0, 0x00, 0x00, 0x00, 0xf4, 0x00, 0x00, 0x00, 0x04, 0x00, 0x00, 0x00,
  0x6d, 0x61, 0x69, 0x6e, 0x00, 0x00, 0x00, 0x00, 0x03, 0x00, 0x00, 0x00,
  0x94, 0x00, 0x00, 0x00, 0x50, 0x00, 0x00, 0x00, 0x14, 0x00, 0x00, 0x00,
  0x00, 0x00, 0x0e, 0x00, 0x1a, 0x00, 0x14, 0x00, 0x10, 0x00, 0x0c, 0x00,
  0x0b, 0x00, 0x04, 0x00, 0x0e, 0x00, 0x00, 0x00, 0x1c, 0x00, 0x00, 0x00,
  0x00, 0x00, 0x00, 0x09, 0x1c, 0x00, 0x00, 0x00, 0x20, 0x00, 0x00, 0x00,
  0x01, 0x00, 0x00, 0x00, 0x00, 0x00, 0x06, 0x00, 0x08, 0x00, 0x04, 0x00,
  0x06, 0x00, 0x00, 0x00, 0x00, 0x00, 0x80, 0x3f, 0x01, 0x00, 0x00, 0x00,
  0x07, 0x00, 0x00, 0x00, 0x01, 0x00, 0x00, 0x00, 0x06, 0x00, 0x00, 0x00,
  0xce, 0xff, 0xff, 0xff, 0x10, 0x00, 0x00, 0x00, 0x00, 0x00, 0x00, 0x08,
  0x0c, 0x00, 0x00, 0x00, 0x10, 0x00, 0x00, 0x00, 0x8c, 0xfc, 0xff, 0xff,
  0x01, 0x00, 0x00, 0x00, 0x06, 0x00, 0x00, 0x00, 0x03, 0x00, 0x00, 0x00,
  0x05, 0x00, 0x00, 0x00, 0x01, 0x00, 0x00, 0x00, 0x02, 0x00, 0x00, 0x00,
  0x00, 0x00, 0x0e, 0x00, 0x16, 0x00, 0x00, 0x00, 0x10, 0x00, 0x0c, 0x00,
  0x0b, 0x00, 0x04, 0x00, 0x0e, 0x00, 0x00, 0x00, 0x18, 0x00, 0x00, 0x00,
  0x00, 0x00, 0x00, 0x08, 0x18, 0x00, 0x00, 0x00, 0x1c, 0x00, 0x00, 0x00,
  0x00, 0x00, 0x06, 0x00, 0x08, 0x00, 0x07, 0x00, 0x06, 0x00, 0x00, 0x00,
  0x00, 0x00, 0x00, 0x01, 0x01, 0x00, 0x00, 0x00, 0x05, 0x00, 0x00, 0x00,
  0x03, 0x00, 0x00, 0x00, 0x00, 0x00, 0x00, 0x00, 0x04, 0x00, 0x00, 0x00,
  0x03, 0x00, 0x00, 0x00, 0x01, 0x00, 0x00, 0x00, 0x07, 0x00, 0x00, 0x00,
  0x01, 0x00, 0x00, 0x00, 0x00, 0x00, 0x00, 0x00, 0x08, 0x00, 0x00, 0x00,
  0xd0, 0x02, 0x00, 0x00, 0x78, 0x02, 0x00, 0x00, 0x24, 0x02, 0x00, 0x00,
  0xcc, 0x01, 0x00, 0x00, 0x7c, 0x01, 0x00, 0x00, 0xe0, 0x00, 0x00, 0x00,
  0x60, 0x00, 0x00, 0x00, 0x04, 0x00, 0x00, 0x00, 0x66, 0xfd, 0xff, 0xff,
  0x00, 0x00, 0x00, 0x01, 0x14, 0x00, 0x00, 0x00, 0x1c, 0x00, 0x00, 0x00,
  0x1c, 0x00, 0x00, 0x00, 0x08, 0x00, 0x00, 0x00, 0x34, 0x00, 0x00, 0x00,
  0x02, 0x00, 0x00, 0x00, 0xff, 0xff, 0xff, 0xff, 0x05, 0x00, 0x00, 0x00,
  0x50, 0xfd, 0xff, 0xff, 0x1b, 0x00, 0x00, 0x00, 0x53, 0x74, 0x61, 0x74,
  0x65, 0x66, 0x75, 0x6c, 0x50, 0x61, 0x72, 0x74, 0x69, 0x74, 0x69, 0x6f,
  0x6e, 0x65, 0x64, 0x43, 0x61, 0x6c, 0x6c, 0x5f, 0x31, 0x3a, 0x30, 0x00,
  0x02, 0x00, 0x00, 0x00, 0x01, 0x00, 0x00, 0x00, 0x05, 0x00, 0x00, 0x00,
  0xbe, 0xfd, 0xff, 0xff, 0x00, 0x00, 0x00, 0x01, 0x14, 0x00, 0x00, 0x00,
  0x1c, 0x00, 0x00, 0x00, 0x1c, 0x00, 0x00, 0x00, 0x07, 0x00, 0x00, 0x00,
  0x58, 0x00, 0x00, 0x00, 0x02, 0x00, 0x00, 0x00, 0xff, 0xff, 0xff, 0xff,
  0x05, 0x00, 0x00, 0x00, 0xa8, 0xfd, 0xff, 0xff, 0x3c, 0x00, 0x00, 0x00,
  0x73, 0x65, 0x71, 0x75, 0x65, 0x6e, 0x74, 0x69, 0x61, 0x6c, 0x5f, 0x31,
  0x5f, 0x31, 0x2f, 0x64, 0x65, 0x6e, 0x73, 0x65, 0x5f, 0x34, 0x5f, 0x31,
  0x2f, 0x4d, 0x61, 0x74, 0x4d, 0x75, 0x6c, 0x3b, 0x73, 0x65, 0x71, 0x75,
  0x65, 0x6e, 0x74, 0x69, 0x61, 0x6c, 0x5f, 0x31, 0x5f, 0x31, 0x2f, 0x64,
  0x65, 0x6e, 0x73, 0x65, 0x5f, 0x34, 0x5f, 0x31, 0x2f, 0x41, 0x64, 0x64,
  0x00, 0x00, 0x00, 0x00, 0x02, 0x00, 0x00, 0x00, 0x01, 0x00, 0x00, 0x00,
  0x05, 0x00, 0x00, 0x00, 0x3a, 0xfe, 0xff, 0xff, 0x00, 0x00, 0x00, 0x01,
  0x14, 0x00, 0x00, 0x00, 0x1c, 0x00, 0x00, 0x00, 0x1c, 0x00, 0x00, 0x00,
  0x06, 0x00, 0x00, 0x00, 0x74, 0x00, 0x00, 0x00, 0x02, 0x00, 0x00, 0x00,
  0xff, 0xff, 0xff, 0xff, 0x20, 0x00, 0x00, 0x00, 0x24, 0xfe, 0xff, 0xff,
  0x5a, 0x00, 0x00, 0x00, 0x73, 0x65, 0x71, 0x75, 0x65, 0x6e, 0x74, 0x69,
  0x61, 0x6c, 0x5f, 0x31, 0x5f, 0x31, 0x2f, 0x64, 0x65, 0x6e, 0x73, 0x65,
  0x5f, 0x33, 0x5f, 0x31, 0x2f, 0x4d, 0x61, 0x74, 0x4d, 0x75, 0x6c, 0x3b,
  0x73, 0x65, 0x71, 0x75, 0x65, 0x6e, 0x74, 0x69, 0x61, 0x6c, 0x5f, 0x31,
  0x5f, 0x31, 0x2f, 0x64, 0x65, 0x6e, 0x73, 0x65, 0x5f, 0x33, 0x5f, 0x31,
  0x2f, 0x52, 0x65, 0x6c, 0x75, 0x3b, 0x73, 0x65, 0x71, 0x75, 0x65, 0x6e,
  0x74, 0x69, 0x61, 0x6c, 0x5f, 0x31, 0x5f, 0x31, 0x2f, 0x64, 0x65, 0x6e,
  0x73, 0x65, 0x5f, 0x33, 0x5f, 0x31, 0x2f, 0x41, 0x64, 0x64, 0x00, 0x00,
  0x02, 0x00, 0x00, 0x00, 0x01, 0x00, 0x00, 0x00, 0x20, 0x00, 0x00, 0x00,
  0x26, 0xff, 0xff, 0xff, 0x00, 0x00, 0x00, 0x01, 0x10, 0x00, 0x00, 0x00,
  0x10, 0x00, 0x00, 0x00, 0x05, 0x00, 0x00, 0x00, 0x2c, 0x00, 0x00, 0x00,
  0xac, 0xfe, 0xff, 0xff, 0x1f, 0x00, 0x00, 0x00, 0x73, 0x65, 0x71, 0x75,
  0x65, 0x6e, 0x74, 0x69, 0x61, 0x6c, 0x5f, 0x31, 0x5f, 0x31, 0x2f, 0x64,
  0x65, 0x6e, 0x73, 0x65, 0x5f, 0x33, 0x5f, 0x31, 0x2f, 0x4d, 0x61, 0x74,
  0x4d, 0x75, 0x6c, 0x00, 0x02, 0x00, 0x00, 0x00, 0x20, 0x00, 0x00, 0x00,
  0x03, 0x00, 0x00, 0x00, 0x72, 0xff, 0xff, 0xff, 0x00, 0x00, 0x00, 0x01,
  0x10, 0x00, 0x00, 0x00, 0x10, 0x00, 0x00, 0x00, 0x04, 0x00, 0x00, 0x00,
  0x38, 0x00, 0x00, 0x00, 0xf8, 0xfe, 0xff, 0xff, 0x2b, 0x00, 0x00, 0x00,
  0x73, 0x65, 0x71, 0x75, 0x65, 0x6e, 0x74, 0x69, 0x61, 0x6c, 0x5f, 0x31,
  0x5f, 0x31, 0x2f, 0x64, 0x65, 0x6e, 0x73, 0x65, 0x5f, 0x33, 0x5f, 0x31,
  0x2f, 0x41, 0x64, 0x64, 0x2f, 0x52, 0x65, 0x61, 0x64, 0x56, 0x61, 0x72,
  0x69, 0x61, 0x62, 0x6c, 0x65, 0x4f, 0x70, 0x00, 0x01, 0x00, 0x00, 0x00,
  0x20, 0x00, 0x00, 0x00, 0xc6, 0xff, 0xff, 0xff, 0x00, 0x00, 0x00, 0x01,
  0x10, 0x00, 0x00, 0x00, 0x10, 0x00, 0x00, 0x00, 0x03, 0x00, 0x00, 0x00,
  0x1c, 0x00, 0x00, 0x00, 0x4c, 0xff, 0xff, 0xff, 0x0f, 0x00, 0x00, 0x00,
  0x61, 0x72, 0x69, 0x74, 0x68, 0x2e, 0x63, 0x6f, 0x6e, 0x73, 0x74, 0x61,
  0x6e, 0x74, 0x31, 0x00, 0x01, 0x00, 0x00, 0x00, 0x05, 0x00, 0x00, 0x00,
  0x00, 0x00, 0x16, 0x00, 0x18, 0x00, 0x14, 0x00, 0x00, 0x00, 0x10, 0x00,
  0x0c, 0x00, 0x08, 0x00, 0x00, 0x00, 0x00, 0x00, 0x00, 0x00, 0x07, 0x00,
  0x16, 0x00, 0x00, 0x00, 0x00, 0x00, 0x00, 0x01, 0x10, 0x00, 0x00, 0x00,
  0x10, 0x00, 0x00, 0x00, 0x02, 0x00, 0x00, 0x00, 0x1c, 0x00, 0x00, 0x00,
  0x9c, 0xff, 0xff, 0xff, 0x0e, 0x00, 0x00, 0x00, 0x61, 0x72, 0x69, 0x74,
  0x68, 0x2e, 0x63, 0x6f, 0x6e, 0x73, 0x74, 0x61, 0x6e, 0x74, 0x00, 0x00,
  0x02, 0x00, 0x00, 0x00, 0x05, 0x00, 0x00, 0x00, 0x20, 0x00, 0x00, 0x00,
  0x00, 0x00, 0x16, 0x00, 0x1c, 0x00, 0x18, 0x00, 0x00, 0x00, 0x14, 0x00,
  0x10, 0x00, 0x0c, 0x00, 0x00, 0x00, 0x00, 0x00, 0x08, 0x00, 0x07, 0x00,
  0x16, 0x00, 0x00, 0x00, 0x00, 0x00, 0x00, 0x01, 0x14, 0x00, 0x00, 0x00,
  0x20, 0x00, 0x00, 0x00, 0x20, 0x00, 0x00, 0x00, 0x01, 0x00, 0x00, 0x00,
  0x40, 0x00, 0x00, 0x00, 0x02, 0x00, 0x00, 0x00, 0xff, 0xff, 0xff, 0xff,
  0x03, 0x00, 0x00, 0x00, 0x04, 0x00, 0x04, 0x00, 0x04, 0x00, 0x00, 0x00,
  0x20, 0x00, 0x00, 0x00, 0x73, 0x65, 0x72, 0x76, 0x69, 0x6e, 0x67, 0x5f,
  0x64, 0x65, 0x66, 0x61, 0x75, 0x6c, 0x74, 0x5f, 0x6b, 0x65, 0x72, 0x61,
  0x73, 0x5f, 0x74, 0x65, 0x6e, 0x73, 0x6f, 0x72, 0x5f, 0x34, 0x3a, 0x30,
  0x00, 0x00, 0x00, 0x00, 0x02, 0x00, 0x00, 0x00, 0x01, 0x00, 0x00, 0x00,
  0x03, 0x00, 0x00, 0x00, 0x02, 0x00, 0x00, 0x00, 0x20, 0x00, 0x00, 0x00,
  0x04, 0x00, 0x00, 0x00, 0xf4, 0xff, 0xff, 0xff, 0x19, 0x00, 0x00, 0x00,
  0x00, 0x00, 0x00, 0x19, 0x0c, 0x00, 0x0c, 0x00, 0x0b, 0x00, 0x00, 0x00,
  0x00, 0x00, 0x04, 0x00, 0x0c, 0x00, 0x00, 0x00, 0x09, 0x00, 0x00, 0x00,
  0x00, 0x00, 0x00, 0x09
};

#endif //MY_STRESS_MODEL_H